0005dab4
fffb6a5b
0003d0cb
fffff589
0004eef5
0005a169
000585d1
fffb1af9
000555b6
fffa892c
0002e223
000374ca
fffbfc59
000285cc
fffc43a9
fffc35e4
00036189
00039109
0003a74f
0001f4b3
0005e39d
0003bfe0
00004b93
0009a8fd
fffffdd1
fffffd37
0000028a
0000054f
00000405
fffffdb8
0000077e
0000046b
00000775
0000030b
fffffe6d
0000152a
00000047
000002ce
fffffd08
fffffe0a
0000093b
00000357
fffffd81
000001e8
000003e5
00000a51
000003e1
00000386
fffffd7b
ffffdcbb
0000005d
00000411
000010f9
ffffe9e5
ffffed73
00002a76
ffffe866
00001bf1
0000241b
00001402
0000003c
000001bd
00000903
00002096
0000043b
00001981
00002fe3
00002091
00003437
00001012
000011c0
fffff55c
fffffd1a
00000572
fffffedd
000004ea
fffffd1f
0000064a
fffffb7a
fffffe55
00000635
fffff938
0000062d
ffffff8c
0000055d
ffffff77
00000614
fffffeb6
00000085
00000452
00000127
ffffffee
000008cf
00000460
0000046b
00000004
fffffcca
00001b43
0000034f
00001192
000003b3
ffffffd8
00000134
00000ff7
ffffe8b0
000005ce
000003fc
000009ed
00000ed8
000008c2
ffffedab
00000387
000019a0
ffffe785
00000588
ffffff57
0000029a
00000f20
000007e7
000000f0
fffffda1
fffffc65
ffffff8e
00000299
0000023a
000003a0
fffffef4
0000064b
fffffde5
000004ca
fffffdac
fffffdf7
fffffaef
fffffc49
000006a3
fffffef4
ffffff5e
000003f4
ffffff8d
fffffe64
00000757
0000029f
fffffd12
fffffe88
0000013d
fffffea5
fffff964
00000158
fffff744
fffffc73
00000393
00000177
fffffcbc
00000147
00000af7
000003be
0000009d
fffff312
00000173
00000202
0000007c
fffff585
000005e4
fffffa67
0000018a
fffffa56
fffffbf6
fffff9f6
fffffc59
0000030f
fffffc8b
fffffcb7
0000035a
fffffe55
ffffff15
ffffffbd
fffffaff
fffffcba
00000149
00000264
fffffec9
fffffd19
fffff9c9
fffffe16
fffffd57
000001a8
000002c7
fffffbf0
000002da
fffffe1f
ffffff01
fffffbb1
ffffffb8
00000004
ffffff7e
ffffffce
ffffff29
ffffffb7
000000cb
0000016d
ffffff88
ffffff48
00000009
ffffffc9
00000210
0000004a
ffffffd5
000000b1
ffffff62
ffffffda
ffffff62
ffffffb5
ffffff90
00000047
00000092
ffffff78
ffffffff
00000012
ffffffc0
ffffffa8
00000085
00000001
fffffff7
