b1
ac
f1
3e
ca
e7
2b
3e
ea
15
4a
45
0e
58
75
44
13
64
7f
41
16
4c
3e
00
0f
35
2c
df
07
05
e6
b9
12
02
e1
ac
18
09
d6
b2
d0
80
d6
e4
ca
9d
b0
1f
c0
c6
b5
f5
e3
b9
fc
1e
db
bf
fc
02
af
03
f4
17
ea
fd
0d
07
dc
dc
13
25
ba
28
32
13
91
0b
21
06
7f
62
45
3d
69
75
56
20
46
22
37
f7
2f
2f
fb
cc
74
2e
0e
b9
39
09
03
d6
4a
1c
11
dc
0d
26
01
a7
11
fb
ce
b8
e1
e0
d2
93
c7
d0
94
80
d1
d0
b1
a5
04
dc
f7
d9
27
2a
fb
32
25
50
43
5a
0a
0a
2f
4e
0e
11
17
45
f3
16
1c
2c
23
15
09
31
06
31
2a
1b
fe
b8
26
cc
c8
fc
0f
fc
c0
2e
36
e1
e1
ee
7f
21
10
23
17
11
10
46
5b
5a
02
bd
5c
33
c5
38
20
14
18
d2
79
31
f4
34
78
0f
0d
33
16
08
23
4d
0b
f5
3a
51
29
0f
54
4c
19
f6
4b
4f
16
f3
7f
5a
05
02
68
6e
07
fe
6c
73
ef
04
51
42
ef
fa
4b
2b
f5
d2
2d
69
6d
2b
2d
7f
7d
3f
45
7f
35
0a
47
2b
41
0e
4f
2f
2c
0d
22
3e
2b
05
46
42
d9
b9
e2
08
bc
d9
eb
1c
d9
99
f6
27
95
84
ef
b3
bc
80
f9
f2
d3
88
18
ca
c2
93
0c
d7
f6
d2
0f
0e
ec
e2
f2
d9
d2
c4
e6
14
d2
a1
43
14
05
da
4a
17
03
da
2a
2b
04
f4
95
2c
31
ac
a8
5f
74
e9
c9
4b
39
e8
f1
48
71
10
5e
29
59
10
62
7f
11
ba
57
3a
0c
cd
6d
33
2f
a2
01
7c
34
c8
f0
49
20
a9
c4
c7
b4
1f
ce
f7
91
a7
1b
c0
be
44
0d
9f
18
dd
d7
0b
80
46
16
0e
1b
b2
aa
e1
a7
a2
1b
be
9b
0a
a1
25
9e
9d
da
87
e5
94
63
7f
2b
35
6b
66
1a
07
72
56
da
eb
63
3c
f3
a3
3a
10
c1
bf
ff
ee
c6
ab
2e
24
e3
dc
ef
19
ed
f8
08
e8
17
e6
18
fe
e8
ec
52
4f
74
7f
42
57
67
7f
2a
40
38
54
0d
11
1f
3e
0e
16
15
2d
f4
f6
00
0c
db
e7
ff
ee
ac
ca
dc
bf
9d
ae
bc
9d
81
95
af
94
ad
e0
09
36
a9
f5
3b
1d
de
eb
38
02
e9
2a
3c
fb
e6
01
12
d5
bb
1b
e9
bc
c9
1e
db
94
d5
0b
bf
a9
ca
ba
ab
b5
a9
fc
a2
80
80
aa
d8
ec
a0
a6
d0
d9
cf
e8
ed
f0
09
18
09
08
2c
23
17
02
3c
32
08
04
45
1b
02
e4
3b
2d
04
eb
3e
42
1c
04
25
24
19
13
3f
1a
10
e8
3b
11
eb
cf
33
1b
f5
e9
fc
19
fd
cf
f6
fa
e7
b5
2a
fb
f0
01
20
10
e8
e2
e0
03
d0
d4
a5
c3
9e
b1
be
9c
80
89
b7
d2
bb
f1
bf
b6
8d
b0
a9
c4
c4
dd
a9
a0
8f
d3
ce
a6
81
eb
fa
c5
87
d3
ca
fa
81
13
12
e7
d3
f5
12
de
d4
f3
08
10
bd
19
e0
a1
86
81
ec
c6
a7
98
ed
c7
cf
97
20
f3
f9
f9
27
0f
fd
f8
24
11
08
ff
25
2f
16
20
4f
60
63
53
43
3a
65
5a
4c
31
29
47
06
d0
08
b4
f6
d5
17
37
57
28
14
33
3a
49
ef
0a
37
07
d3
1c
25
0d
74
f5
fc
fb
d4
21
7f
2e
f9
4a
3d
10
17
e2
60
46
20
87
f6
a5
c7
1a
1f
b9
ad
ff
26
ca
a6
05
39
ee
c2
f5
52
f9
cc
01
7f
0f
d2
19
76
2a
ec
2b
58
27
fe
51
2f
2a
0e
65
0e
02
fd
4d
0b
fe
fc
cf
e2
cc
be
b6
db
cd
d0
ec
c3
d3
d1
f8
e1
f8
e3
3d
53
4a
52
7f
46
4d
34
56
75
66
4d
4e
40
e2
ed
f4
d3
a4
c7
ca
fc
00
d8
80
04
fe
f2
ab
14
11
06
c8
ff
14
14
f5
10
29
27
10
e4
0c
2a
12
e3
1f
51
3c
ec
16
37
51
e0
1d
40
76
c6
04
30
46
21
56
7c
6f
08
3f
5d
7f
dc
1d
4c
44
ca
1a
3d
50
c2
eb
38
37
b8
dc
15
02
a3
d7
00
fa
b1
e3
f0
e4
aa
d1
c2
a1
d3
b0
c8
8d
35
c6
b8
a4
40
dc
ab
a8
2c
dc
b7
8b
28
f2
b5
94
12
13
cf
8d
0d
1b
f9
ac
f7
2a
22
ce
ec
19
41
0c
de
3e
7d
55
d4
24
7f
75
fa
ce
be
dc
fb
cf
cf
e9
fe
de
e2
f5
01
f5
05
18
0e
0f
27
3b
12
20
3f
47
25
3d
55
5b
1f
43
6a
5d
21
51
7f
60
07
3c
68
53
f0
05
7f
e5
32
23
ca
1a
d0
0c
7f
44
d7
5b
81
31
77
a4
80
e9
0e
d7
cd
c6
1e
20
a2
8b
c9
8b
e5
de
8c
d1
ed
80
3b
80
95
54
bc
87
70
cc
b8
3d
3e
80
7f
2c
a6
75
02
df
8a
da
61
81
09
5f
9d
0c
0e
16
f3
80
cf
16
bd
b0
08
ce
e8
43
ba
d6
01
81
0f
15
95
10
d8
18
1a
a8
dd
b8
80
dc
7f
29
e8
6b
15
b6
f2
b2
b1
3e
22
80
0a
32
ef
82
dd
b1
07
97
92
bb
80
9d
8e
a9
bb
75
1b
c5
7f
02
9d
1d
fd
94
c2
41
2a
09
58
6f
1a
6b
7f
08
2f
7f
05
41
23
00
4b
fd
9e
b9
7f
bc
dc
32
c4
d6
f2
80
c5
a7
b4
a7
ec
c6
9d
d4
69
a9
c3
7f
e2
a6
72
37
be
80
a9
9b
93
40
2b
34
69
5d
b3
00
6e
96
e3
64
be
ec
7f
14
e4
80
35
ec
98
53
fa
f5
d6
39
0a
ae
e4
3b
8c
81
5b
e7
db
f5
ef
e2
40
03
fe
7f
cd
e4
02
d7
f2
17
e8
d8
c8
f7
f7
00
06
d7
1b
ff
fb
f9
c7
f8
f7
4c
7f
2a
22
fd
37
d0
ca
fd
eb
09
15
11
0a
f4
11
4e
07
f3
0b
f7
de
d0
71
29
e0
7f
3e
11
f3
11
e4
1c
2f
eb
25
18
04
54
13
db
d2
11
1d
16
da
f8
bb
07
34
80
7f
0c
00
cd
05
ee
1a
31
ec
2c
10
e2
06
e8
c2
da
05
f5
d5
cb
62
34
50
7c
d6
c5
ed
11
26
a0
02
9e
12
a8
b1
ef
e9
d0
2f
44
27
2a
95
25
8a
2f
e6
80
82
f3
d8
1b
18
7f
c9
fa
0a
08
17
24
ff
34
4c
05
24
e4
3a
23
e0
18
76
13
9a
ea
07
f7
02
fe
f3
e5
22
09
11
7f
14
c4
cf
1d
b4
11
8e
fe
2f
22
41
28
53
1a
f3
d0
c0
35
fc
0d
06
07
56
80
11
8a
d8
cd
0b
e4
b4
f7
bc
2f
a0
c8
57
09
2b
de
f0
04
1b
f0
fd
00
c2
76
06
12
fa
f6
b7
f7
20
c7
f0
4b
d3
7f
9f
b7
ba
11
22
55
c4
30
e1
23
14
81
f8
65
ea
b0
f0
ea
0c
9a
a2
25
bc
ce
29
e4
b0
c9
c7
40
bc
d8
b8
e3
c2
cc
e5
47
33
fe
3c
da
21
b1
80
fa
d0
c4
6e
c2
d8
57
f2
1b
08
12
c3
04
38
a2
08
80
ea
c4
6b
ee
c1
31
13
ba
42
ab
7f
1b
fe
ea
e2
1c
ee
0b
0a
19
e7
bc
13
43
e8
ee
e8
ed
eb
10
ef
12
1b
02
3b
0f
0c
e5
21
77
dc
04
29
20
06
e4
0a
45
c3
e1
f8
0c
4b
f5
ed
01
81
3c
06
ad
ea
62
33
cf
28
3c
57
fb
5d
01
f8
80
1c
05
4e
2d
c7
c6
8f
15
d8
97
7f
1d
ec
df
ef
f7
d4
ea
c2
f6
f3
e4
ff
23
e7
08
a8
e7
f1
e5
b4
03
e9
8a
56
e2
f6
e1
d4
b2
3e
e2
c5
18
ea
03
fc
c6
de
01
2e
d8
9d
f0
7f
15
0d
f8
f4
eb
fa
e3
f4
4f
80
fa
e9
01
a5
92
16
3a
ed
f7
e7
e5
01
ac
f3
23
27
40
0c
f6
e5
15
db
fe
e5
18
cc
0a
3a
80
0e
bc
b4
ec
10
0f
ed
de
dd
c1
a5
b6
13
c8
f8
1f
e0
27
ed
27
c0
04
d7
80
f4
32
94
06
c5
10
eb
e1
bf
a7
cc
8f
0f
10
e7
12
fd
e0
f3
d7
f0
f0
15
87
f1
e3
2f
02
b6
f7
f1
d0
c3
b3
65
80
28
ea
fc
d2
d4
2e
d1
18
43
24
17
80
13
fa
0d
57
e9
da
5d
fc
2f
2f
38
d4
4f
17
15
a5
06
0d
c5
f2
02
1d
21
e0
12
4b
b5
d3
9d
15
55
b3
f2
7c
37
80
a7
35
fe
13
05
50
dc
0a
13
f5
72
7a
f1
cb
cd
fe
cb
ea
15
7f
1a
19
16
53
0b
0b
dc
f2
23
f9
d8
0c
7f
e7
03
80
2c
46
8e
06
74
f9
d1
d3
54
9e
ea
0a
11
22
7f
a3
bc
e0
ff
04
e1
7f
1b
d0
5c
2a
77
79
e1
4c
f2
be
7f
eb
d5
5f
a3
ae
e1
81
d0
08
c1
4d
7f
2c
08
e5
1e
fd
bc
ee
80
33
56
ab
30
74
29
ad
07
cb
dd
bb
0e
bf
80
9a
25
c5
00
7f
e4
ee
23
0c
31
53
a5
ef
7d
90
b8
11
9a
ad
7f
7f
1e
fa
28
ec
ee
ff
ff
bf
5c
c1
a9
08
03
57
e6
80
c1
7f
d1
2e
59
cd
19
f6
0d
ab
d6
a8
80
fe
aa
e8
aa
18
3f
1b
80
6a
02
cb
3f
cc
32
5f
c9
6e
7f
c0
48
46
ae
fb
38
80
f0
11
ae
23
2d
ec
3c
0a
7a
db
81
0f
cf
bc
43
0d
79
c4
d9
9f
fa
31
c8
7f
4f
f0
f9
29
80
cd
cb
f3
04
d2
af
80
00
f5
04
d5
8a
fc
8c
c8
f7
dd
80
c8
f6
05
85
2c
58
aa
e6
c8
a2
2a
2a
1f
7f
31
ef
e3
d8
f0
f7
32
02
03
f1
0f
cb
d6
eb
11
02
01
2b
0e
7f
15
ee
09
07
e8
e1
80
f6
d7
eb
db
d7
ec
e1
0e
d8
f5
c1
dc
22
2e
16
05
de
e4
c8
f2
ee
d0
ef
b8
10
04
cf
50
fa
0a
a3
52
2e
32
e0
a3
6e
34
7f
ea
35
d9
1d
ce
01
f6
a5
f4
1b
c7
f4
18
4a
e6
b6
1e
be
d6
c9
03
2f
43
23
80
d7
2c
18
de
dd
b8
31
21
f2
b6
e4
1f
74
fd
f4
1b
2d
80
d7
b9
0b
33
06
fa
ca
f8
4a
e2
5f
24
e2
1c
ee
cd
fb
ef
ab
a1
7a
f1
02
1d
5c
3f
0e
80
10
b3
2c
fd
cc
c4
0a
d5
e6
d9
ea
df
15
51
e9
c6
0d
39
f0
c6
f8
14
d4
3b
04
dd
7f
4a
e4
34
2b
aa
0f
18
37
19
e3
e0
48
1a
bf
4e
f7
8d
e7
35
60
ca
ae
ee
c8
fd
06
1a
80
b4
dd
dc
ee
f7
ec
35
7f
b4
21
f6
de
01
49
dc
1e
04
01
38
0d
0f
38
3e
3c
e1
57
b9
80
c9
c9
19
f2
09
d9
f0
6c
3e
cb
ab
dd
ce
4d
ea
ec
dd
4c
0e
1c
35
50
1e
c3
1c
ea
e1
05
f9
0f
7f
97
ee
f6
28
17
f7
f5
ae
fa
f2
b0
08
e7
2a
c7
06
f4
2a
e6
bf
48
1a
f0
db
c3
f8
f7
1f
20
6a
a3
80
c4
b8
28
10
fb
f5
ab
ad
df
b0
e5
dd
f0
e8
ee
65
ee
a3
c0
0c
69
1f
24
f2
fe
21
7f
1b
0a
13
44
13
aa
13
e4
b9
ea
7f
c2
f6
18
20
e9
27
5e
d6
f0
b0
07
02
43
37
b7
92
7f
15
06
21
07
fa
14
14
0b
d9
e8
62
26
03
09
cc
f2
ee
60
0f
13
fc
01
de
f1
20
d3
12
e5
d6
11
06
ce
f4
25
fe
e3
d7
29
33
80
55
ef
0a
0b
0a
0b
f5
97
a1
e9
ad
e6
98
02
02
c6
e9
19
02
e6
d9
6e
d3
34
81
b8
d5
3b
f3
0d
d8
51
43
2a
24
2b
2c
3e
6d
35
09
fc
de
30
04
ef
01
7f
1a
e1
1c
43
1a
0f
f0
df
f7
25
a9
e1
34
01
cf
09
ea
0a
7f
c8
de
f0
b1
56
06
dc
3e
e6
08
d5
cd
2d
2f
dd
f9
f9
46
ff
02
de
c9
d8
f2
f2
7f
1e
db
fe
c4
e3
2c
df
fc
e6
fd
c2
04
27
29
30
b9
cb
e0
55
f0
cd
7f
29
28
f5
4a
2c
9a
2b
eb
04
f2
34
c3
36
11
c0
2a
e1
ea
50
25
b9
c6
fa
d9
f0
d7
34
f3
80
57
ac
e5
35
04
de
b1
25
e1
df
ed
fd
ef
a1
e8
e7
65
7c
ef
0c
2d
32
b3
c7
86
4d
e1
f8
de
cd
80
db
fe
f7
05
0a
28
c8
11
06
10
10
f9
f5
f8
fe
7f
c8
e7
ec
ba
ef
fe
0c
f8
0d
f5
1f
47
05
0a
7f
64
0f
f8
64
7f
f0
1c
ec
bd
08
1d
c2
be
bc
1c
09
b5
43
7f
44
40
c8
b1
7f
f1
ce
59
ec
b7
80
0a
29
8b
1f
2b
a6
10
58
d4
d2
b1
ff
1f
e9
07
c3
81
40
37
57
0f
1b
ff
bf
a6
80
db
cf
80
e0
c1
01
c2
e7
31
50
28
7f
14
b4
20
2b
ed
34
15
da
a2
5a
f0
c1
00
9d
80
7f
22
a4
32
fe
b5
35
26
f6
7f
50
ac
1b
e6
e3
59
da
14
f1
c0
77
fe
0d
3f
22
2f
7f
4b
25
c9
23
21
de
4c
52
7f
80
b7
ef
fc
07
0e
aa
0f
e6
4b
28
a6
7f
fd
85
4f
79
59
cf
80
d0
ec
c5
96
0b
ea
88
e7
ca
a7
b8
b5
e3
b6
a6
80
e8
ee
7f
ed
d4
3e
e5
a7
16
ad
62
58
48
d5
5d
79
a2
7f
80
e0
bc
03
1f
d6
a8
4f
cc
6d
fe
ba
d5
d9
10
80
16
48
92
e9
72
c2
07
7f
8e
32
76
aa
c0
cd
de
e1
16
f0
4b
7f
dc
a6
0d
fa
5e
ed
eb
67
30
d9
ef
37
6f
2e
b5
80
16
b2
b4
bb
ac
e8
d3
1f
e2
7f
1a
e8
eb
ee
1c
66
e1
9d
0b
d2
1f
30
40
f2
f6
2b
cc
e4
e3
da
ea
cb
3c
c9
f5
15
f6
a2
12
f4
f7
48
77
2f
1e
15
e7
11
10
10
7f
1d
98
18
e2
07
4c
f6
7f
db
bf
e0
b8
e8
56
fc
c3
c9
df
09
bc
e8
22
ea
ec
1a
ca
d1
d1
ea
54
00
e5
25
2b
f1
7f
1a
6e
24
64
e3
e5
08
b3
ef
12
e5
cb
20
d9
10
46
1f
85
e3
f5
f2
eb
0a
e2
34
c2
14
89
eb
ef
81
fe
3d
ea
fd
ca
e2
ed
f5
c8
7f
ea
ab
f5
07
08
3b
fa
f2
81
1c
03
fa
b4
7f
e0
a2
f8
d7
f0
22
0e
e1
2f
f3
2d
f7
0b
d4
7f
04
eb
f8
0f
f8
51
14
df
e7
c3
dc
04
36
eb
d8
fd
1b
f1
f0
80
4b
05
d5
dd
11
2f
e0
1b
e7
fe
bd
2e
ed
4f
49
f2
09
d5
a6
0a
ba
2f
21
ca
81
30
a9
25
36
ef
fb
80
0c
f6
d8
a8
37
92
21
fa
d5
0a
aa
f8
f3
03
bd
19
d1
09
9c
e6
04
d1
28
eb
1d
d9
3d
c2
2e
e9
90
fc
e3
80
c4
cc
09
0a
f0
03
20
d1
c1
fc
be
e3
50
d2
66
47
f6
26
3b
d0
ee
05
f4
ea
f7
80
06
f6
d5
ed
d6
1c
00
48
e0
7f
f4
ed
19
0b
1e
fe
18
b9
1b
f3
d7
f9
07
e2
11
22
19
f2
15
18
13
d2
00
9f
f4
0d
31
01
7f
e9
f1
15
f6
0e
0d
ae
0c
dc
1a
36
ec
11
b2
f4
17
0d
05
d1
fc
ec
f4
da
2e
81
6f
dc
9e
10
a8
e9
15
35
d3
e1
06
f6
cc
f2
0f
04
f0
bf
2a
c7
7f
02
e0
ee
da
b9
18
11
0d
09
fc
d0
19
18
e6
de
f3
27
10
37
e1
e5
c1
c7
fc
ac
09
4b
fb
eb
02
14
09
d2
c1
20
cf
d3
7f
e6
7f
23
1b
f5
0e
2c
54
eb
35
bd
15
d4
11
5d
2c
ec
b2
d7
e2
00
e9
40
2f
db
95
22
a0
2f
19
d4
5a
3f
7f
e0
51
0d
d8
81
10
0d
bb
e6
dc
b8
1c
e3
db
00
bd
d6
80
2f
07
df
30
41
f2
be
05
08
7d
ba
18
0f
e0
c5
db
04
4e
4e
05
f9
cd
fc
f3
ea
dc
23
7a
21
80
d4
59
dc
f5
e0
70
3f
10
e6
0f
f8
1a
16
f0
7f
12
b9
ff
e8
0c
13
17
02
34
f6
f7
1f
cd
19
f4
10
0a
ec
0a
d7
07
2c
ed
ab
64
56
9d
47
fb
f6
11
43
e9
53
ba
01
f0
e0
dd
07
db
1d
f0
1a
e5
3c
7f
ae
b6
37
f1
7f
21
e9
c2
84
c8
17
2f
f9
1d
c1
25
1b
f3
e2
4c
6c
aa
d0
dd
4f
47
49
26
e5
24
48
4a
7f
84
21
80
f3
0e
f3
81
0a
9e
4a
31
7f
f1
02
f1
6a
34
4f
6f
14
7f
36
fe
2b
5a
1d
65
c6
ca
99
3c
35
2d
81
bb
bb
cf
48
36
09
08
fa
60
3a
7f
6e
3c
b1
59
0c
9d
3b
a5
81
7f
e6
9a
3a
ba
8d
60
2e
f5
7f
35
40
06
01
09
45
39
76
4a
64
66
12
18
07
68
7f
6c
80
ff
8e
ed
ad
f9
ae
ff
02
81
18
ec
92
00
e6
df
f1
e8
b2
89
9e
fb
42
7a
7f
5c
3e
7f
3e
4a
d8
fc
e8
42
45
69
56
29
63
03
c3
f8
7c
3a
7f
37
16
46
f4
de
05
34
23
7f
3e
3d
3f
0e
02
13
57
33
7f
80
df
bd
c5
a7
06
b5
83
35
80
a2
cd
b7
e8
b4
0f
df
da
5f
3f
7f
ff
09
17
71
49
54
b8
b2
80
90
ac
ad
f3
18
3d
9e
bf
02
dd
10
47
4f
7f
76
ea
3e
a1
e5
1f
d8
81
42
ea
6b
5f
77
08
24
0e
7f
45
68
05
2d
7f
e5
f5
f1
12
15
eb
42
07
ed
05
0f
de
6f
3e
18
da
cd
fe
01
f3
32
e9
dc
fe
f2
45
19
02
d4
e7
de
d3
0f
ef
7f
45
ec
0c
06
fb
d6
ae
fa
f0
07
d5
2b
19
20
36
35
cc
0b
15
d2
f8
08
f4
57
e2
13
ee
ff
dc
7f
d5
d6
2a
d0
3a
ff
eb
04
fe
15
3d
ef
e7
64
eb
ef
fd
f9
b3
fe
45
1d
ec
cf
f7
41
e7
7f
f9
09
7f
17
08
36
dc
0f
32
0d
f7
00
00
06
42
0e
4e
0b
13
0d
22
ed
f5
b8
ff
14
1d
ef
12
03
17
01
ca
28
fa
01
d6
7f
cc
29
12
0f
fb
e3
df
05
31
33
18
c1
23
dc
da
d9
0e
fb
7f
f3
06
0f
12
c4
06
fb
0d
ef
2f
f9
f4
34
10
f8
1a
f1
d9
e5
d1
f9
1f
22
fd
f3
f0
d5
ff
03
b7
e4
e3
ec
e5
7f
cf
22
5b
f9
09
c4
27
23
09
0c
d1
08
7f
f1
16
0b
f7
e3
4b
ff
31
11
17
28
39
ea
ec
c8
15
11
08
78
fe
54
d7
03
1e
ef
e6
ea
e8
fb
7f
f7
29
18
02
cc
2b
fe
d9
ea
7f
06
1c
53
e8
3a
c2
07
51
28
bc
c4
d1
f0
14
e1
0b
29
f0
73
03
cb
fc
99
d8
2d
f3
00
fd
1f
d3
0a
0a
c7
0f
14
fe
03
d3
08
e6
fc
e5
7f
e3
ed
3b
eb
d3
04
dc
e2
80
09
47
21
ec
c3
00
ef
1b
02
fb
e3
d4
e8
cd
f8
d5
40
35
68
f9
80
e9
ef
6f
32
02
e1
e8
d5
ce
03
df
72
29
c3
41
00
2b
ed
92
00
e9
04
f3
02
7f
ff
e8
0a
ec
0c
2d
03
0a
ef
05
0a
27
2b
2c
15
ff
22
03
ee
17
c6
e0
11
e8
6a
b8
ee
fd
22
f8
bb
e0
e1
ef
e9
7f
d7
fc
07
c6
ec
fd
1f
fe
10
e3
0b
28
fb
31
43
ed
f2
0b
e3
f6
0a
e9
7f
eb
f0
21
01
f7
33
f4
f9
06
f6
ed
1a
0e
f4
1f
04
02
0e
cb
03
ee
ec
e6
47
f5
52
ed
d3
d0
09
f0
f7
7f
f8
f6
0c
03
f8
31
18
02
ee
f6
f5
fb
12
ea
7f
f3
f9
06
fe
f7
1a
e5
ff
25
01
f1
01
fa
f6
00
52
fd
fa
ff
da
e0
fd
fa
f7
7f
01
04
07
fd
d4
0f
f1
ea
21
20
09
df
e4
37
e8
53
f5
c2
7f
15
0b
01
6e
96
e9
52
ec
ff
d8
db
21
08
6b
7e
d5
fb
ea
fa
fe
20
f1
cd
7f
e9
c6
f7
fa
e6
fd
1f
03
f9
00
15
2f
f5
0a
e1
15
e9
35
c0
34
18
0e
f3
f3
e2
d6
fa
dd
36
e7
1a
16
b0
c5
f8
4b
e3
7f
c6
1e
29
fa
29
49
d7
f9
13
c8
ea
12
df
7f
dd
f0
0b
00
e5
68
ef
e0
12
ea
13
1b
53
80
26
2e
db
41
03
b4
04
62
02
0f
3c
c8
48
4d
54
ba
f5
af
ae
59
f6
eb
d7
20
bb
eb
fc
31
d7
ff
d8
ec
7f
d5
d8
32
c2
ed
d4
26
f3
04
4b
c6
45
13
03
7f
25
49
bf
c1
cd
cf
a0
d0
ee
18
18
c0
33
1b
47
f7
6e
13
fa
1c
f7
06
18
06
1c
e5
b0
be
15
7f
2d
11
ee
11
fc
4c
16
e3
06
6a
d8
c7
3d
1c
a8
1a
d1
d5
c6
e4
7f
c2
29
dd
d6
d6
d9
4a
b8
ec
df
b5
d3
cc
f8
f8
d4
de
3e
db
ff
d7
66
ef
7f
8f
68
32
3c
e7
d6
db
6a
13
f8
12
de
f9
d8
00
03
00
e8
ec
f7
13
d3
f0
fb
7f
d8
e0
60
00
d3
e3
de
e3
d8
f8
e7
de
06
77
e6
d9
